#include "sine_30_30_data.h"

ai_handle ai_sine_30_30_data_weights_get(void)
{

  AI_ALIGNED(4)
  static const ai_u8 s_sine_30_30_weights[ 4084 ] = {
    0xe5, 0x74, 0x6d, 0xbe, 0x7d, 0x5d, 0x6b, 0xbe, 0x93, 0x19,
    0xe8, 0xbb, 0xce, 0xfe, 0x5f, 0x3e, 0x96, 0x80, 0x81, 0x3d,
    0xa0, 0x50, 0x9a, 0x3e, 0x21, 0xaa, 0x4c, 0xbe, 0x94, 0xe9,
    0x0b, 0x3e, 0x40, 0x04, 0x86, 0xbe, 0x8b, 0x6c, 0xb7, 0x3e,
    0x00, 0xf4, 0xda, 0xbb, 0x00, 0x09, 0x31, 0xbb, 0x73, 0xae,
    0xd3, 0xbe, 0x58, 0x10, 0x36, 0x3e, 0x56, 0x78, 0x5f, 0x3d,
    0x61, 0x9e, 0x83, 0xbe, 0x50, 0x66, 0x5b, 0xbd, 0x36, 0x20,
    0x8c, 0xbe, 0x02, 0x42, 0x81, 0x3e, 0x20, 0x6f, 0xbc, 0xbc,
    0xc2, 0x59, 0x73, 0xbe, 0x40, 0x81, 0x2a, 0xbe, 0x4a, 0x77,
    0xe2, 0x3d, 0x60, 0xd1, 0x9a, 0xbd, 0xf0, 0x25, 0x84, 0xbe,
    0x58, 0x46, 0x4b, 0xbd, 0x39, 0xb8, 0xf8, 0x3d, 0xcc, 0xf6,
    0xea, 0x3d, 0xe0, 0x1c, 0x76, 0xbd, 0x46, 0xfc, 0x1a, 0xbe,
    0x00, 0x00, 0x00, 0x00, 0x00, 0x00, 0x00, 0x00, 0x14, 0x0e,
    0x2a, 0xbc, 0x71, 0x21, 0xd7, 0x3d, 0x0c, 0xe9, 0x2c, 0x3e,
    0xa9, 0xdd, 0xf6, 0x3d, 0x00, 0x00, 0x00, 0x00, 0x1a, 0x0c,
    0x2d, 0xbe, 0x00, 0x00, 0x00, 0x00, 0x0c, 0xed, 0x19, 0xbd,
    0x00, 0x00, 0x00, 0x00, 0x00, 0x00, 0x00, 0x00, 0x00, 0x00,
    0x00, 0x00, 0x22, 0x3d, 0x45, 0xbe, 0x2c, 0xa5, 0x18, 0x3e,
    0x00, 0x00, 0x00, 0x00, 0x00, 0x00, 0x00, 0x00, 0x00, 0x00,
    0x00, 0x00, 0xb1, 0xfc, 0x28, 0xbe, 0x00, 0x00, 0x00, 0x00,
    0x00, 0x00, 0x00, 0x00, 0x00, 0x00, 0x00, 0x00, 0xa8, 0xba,
    0xa7, 0x39, 0x00, 0x00, 0x00, 0x00, 0x00, 0x00, 0x00, 0x00,
    0x00, 0x00, 0x00, 0x00, 0x15, 0x69, 0x1a, 0xbe, 0x99, 0xc8,
    0x11, 0xbe, 0x00, 0x00, 0x00, 0x00, 0x00, 0x00, 0x00, 0x00,
    0x8a, 0x0d, 0x18, 0x3e, 0x47, 0xc5, 0x81, 0xbe, 0xb4, 0x3c,
    0x12, 0x3e, 0xf1, 0x1b, 0x02, 0xbe, 0xbd, 0xac, 0x24, 0xbe,
    0x2c, 0xa7, 0x9f, 0xbe, 0xbf, 0x46, 0x2c, 0xbe, 0xdd, 0xdb,
    0x9f, 0xbe, 0x10, 0x84, 0xbd, 0xbd, 0x3f, 0xf2, 0xee, 0xbe,
    0x8c, 0x86, 0x89, 0xbe, 0x1e, 0xf8, 0xb7, 0xbd, 0x22, 0x70,
    0x5c, 0x3e, 0x83, 0x04, 0x8f, 0xbd, 0x0f, 0xca, 0xae, 0x3e,
    0x33, 0xbc, 0x9d, 0xbe, 0xf8, 0x25, 0xe1, 0xbd, 0x28, 0xa1,
    0x34, 0xbe, 0x30, 0xe1, 0x6e, 0xbc, 0x24, 0xf2, 0xec, 0xbd,
    0x46, 0x67, 0x7e, 0x3e, 0x58, 0xc4, 0xfc, 0xbd, 0x37, 0xdc,
    0x14, 0xbf, 0xd8, 0xf9, 0xf8, 0xbd, 0x22, 0xb3, 0x8f, 0xbe,
    0xb4, 0xd4, 0x75, 0xbe, 0x68, 0xe2, 0xd5, 0xbd, 0x6b, 0x3e,
    0x64, 0xbe, 0xb5, 0xf9, 0x9d, 0xbe, 0xdb, 0x9e, 0x82, 0x3e,
    0x26, 0xb7, 0x67, 0xbe, 0x7e, 0x27, 0x7f, 0xbe, 0xc0, 0xe9,
    0xfc, 0xbc, 0x46, 0x09, 0x48, 0xbe, 0xd0, 0x27, 0x80, 0xbe,
    0x77, 0x9a, 0x2f, 0xbe, 0xd6, 0xf9, 0xc1, 0xbd, 0x1d, 0x0a,
    0x95, 0xbe, 0x0c, 0xf6, 0xdb, 0xbd, 0x88, 0xcd, 0x13, 0x3d,
    0xde, 0xf9, 0x7c, 0xbe, 0x58, 0x03, 0x01, 0x3e, 0x36, 0x7c,
    0x6c, 0x3e, 0x86, 0x7b, 0x7b, 0xbe, 0x66, 0xba, 0x0e, 0xbe,
    0xcb, 0x14, 0x31, 0xbe, 0x80, 0x9b, 0xec, 0xbb, 0x26, 0x4b,
    0x28, 0xbe, 0xab, 0xf1, 0x16, 0xbe, 0xfa, 0x06, 0xf8, 0xbd,
    0xff, 0x27, 0x95, 0x3e, 0x34, 0x01, 0x2a, 0x3e, 0xd0, 0x71,
    0x01, 0x3d, 0x5b, 0x53, 0x8d, 0x3e, 0xd6, 0xc7, 0x6c, 0x3e,
    0x80, 0xd3, 0xfb, 0x3b, 0x80, 0x4f, 0x01, 0xbd, 0x0f, 0x44,
    0x9c, 0xbe, 0xd8, 0x8c, 0xff, 0xbd, 0xa8, 0x8d, 0x08, 0x3e,
    0x4b, 0x62, 0x8d, 0xbe, 0x8a, 0xdd, 0xa4, 0xbd, 0x30, 0x0b,
    0x11, 0xbe, 0x3f, 0x99, 0x3c, 0xbe, 0x50, 0x38, 0x02, 0x3e,
    0xfb, 0xa9, 0x85, 0x3c, 0xf3, 0x40, 0x86, 0x3e, 0xb4, 0x01,
    0x62, 0xbe, 0x86, 0x69, 0x78, 0xbe, 0x61, 0x76, 0x9c, 0xbe,
    0x5a, 0xdf, 0x57, 0xbe, 0x70, 0xff, 0x83, 0xbc, 0xda, 0x10,
    0x36, 0x3e, 0x16, 0xd0, 0x7c, 0x3e, 0xd6, 0x1d, 0xd1, 0x3d,
    0xde, 0xe7, 0x06, 0x3e, 0x76, 0xba, 0x5d, 0x3e, 0x00, 0x59,
    0x76, 0xbd, 0x3b, 0x35, 0x6f, 0xbe, 0x3e, 0x23, 0x32, 0x3e,
    0xbf, 0xc1, 0x85, 0x3e, 0x8a, 0xe4, 0x0e, 0x3e, 0x2c, 0x17,
    0x6d, 0xbd, 0x70, 0x02, 0x7b, 0x3d, 0x99, 0xe1, 0x39, 0xbe,
    0xa7, 0x20, 0x2b, 0xbe, 0x24, 0xad, 0xbc, 0xbd, 0x86, 0x72,
    0x46, 0xbe, 0x9c, 0xac, 0xa9, 0xbd, 0xb9, 0x3a, 0x96, 0x3e,
    0xeb, 0x48, 0x49, 0xbe, 0x82, 0xf3, 0x06, 0xbe, 0x6c, 0x07,
    0x9a, 0x3e, 0xa6, 0x24, 0xc7, 0x3d, 0x28, 0x9c, 0x82, 0x3e,
    0x32, 0xbe, 0x7b, 0xbd, 0x9e, 0x70, 0x8e, 0xbe, 0x77, 0xbe,
    0x13, 0xbe, 0xb8, 0xa6, 0x9d, 0x3d, 0x99, 0x07, 0x9e, 0x3e,
    0xcb, 0xcc, 0xa0, 0xbe, 0x74, 0x12, 0xfd, 0x3d, 0x8a, 0x67,
    0x51, 0x3e, 0xcb, 0x9e, 0x78, 0xbe, 0xc8, 0xf5, 0xdc, 0xbd,
    0xfa, 0xa9, 0x5f, 0x3e, 0xf7, 0xad, 0x9f, 0x3e, 0x02, 0x72,
    0x53, 0x3e, 0x71, 0x40, 0xb1, 0x3d, 0xbe, 0x0d, 0x02, 0xbe,
    0x16, 0x3b, 0x70, 0xbe, 0xee, 0x08, 0x17, 0x3e, 0x57, 0x52,
    0x98, 0xbd, 0x7a, 0x28, 0x24, 0x3e, 0x77, 0x8a, 0x27, 0xbe,
    0xd8, 0x12, 0xf4, 0x3d, 0xc8, 0xaa, 0xb4, 0x3e, 0xeb, 0x21,
    0x6b, 0x3d, 0xa8, 0x7d, 0x33, 0x3e, 0x0a, 0xf8, 0x31, 0x3e,
    0x12, 0x1b, 0x41, 0x3e, 0x8e, 0x82, 0x91, 0xbe, 0x4d, 0x20,
    0x94, 0x3e, 0x7d, 0xa7, 0x8a, 0x3e, 0xdf, 0xd0, 0xa1, 0x3e,
    0xde, 0x8d, 0x39, 0x3e, 0xaa, 0xe6, 0x4d, 0xbe, 0x80, 0xda,
    0x0d, 0x3e, 0x2a, 0x1d, 0xf4, 0xbd, 0x65, 0x4a, 0xb4, 0xbe,
    0x0d, 0xda, 0x06, 0xbe, 0xf2, 0x7e, 0x75, 0x3e, 0xf2, 0x34,
    0x54, 0x3e, 0x2f, 0x2f, 0xa1, 0xbe, 0x4c, 0x86, 0xa1, 0xbd,
    0xf8, 0x75, 0x64, 0xbe, 0xe6, 0x3d, 0x71, 0xbe, 0x83, 0x8e,
    0x84, 0xbe, 0xc2, 0x78, 0xf1, 0x3c, 0xe0, 0xf0, 0xef, 0x3d,
    0x80, 0x03, 0xf3, 0x3b, 0x95, 0xe3, 0x9f, 0xbe, 0x0e, 0xe2,
    0x38, 0x3e, 0x78, 0xe2, 0x7d, 0xbe, 0x6f, 0xee, 0x9c, 0xbe,
    0x26, 0xa6, 0x7a, 0xbe, 0xe5, 0xc4, 0x81, 0xbe, 0xdc, 0x86,
    0x0c, 0xbe, 0xbc, 0xf2, 0x89, 0xbd, 0x02, 0xa7, 0x3b, 0xbe,
    0xe4, 0x46, 0x04, 0x3e, 0xf4, 0x58, 0xb3, 0xbd, 0xcb, 0x69,
    0x88, 0x3d, 0x35, 0x3a, 0x47, 0xbd, 0x56, 0x75, 0x61, 0x3e,
    0xad, 0xe9, 0x85, 0x3e, 0x36, 0x7b, 0x0e, 0x3e, 0x6b, 0x36,
    0x1b, 0x3e, 0x18, 0xbd, 0x11, 0xbd, 0xa4, 0xbb, 0x50, 0x3e,
    0x18, 0xbf, 0x3e, 0x3d, 0xaa, 0x39, 0xc3, 0xbd, 0xab, 0xd6,
    0x82, 0xbe, 0xf8, 0x42, 0xcd, 0xbd, 0xbb, 0x16, 0xd6, 0xbc,
    0x90, 0x37, 0x93, 0x3c, 0x65, 0x47, 0x98, 0x3e, 0x1c, 0x55,
    0xa0, 0xbe, 0x6d, 0xbf, 0x18, 0xbd, 0x43, 0x93, 0x1a, 0xbe,
    0x00, 0xb7, 0x96, 0xbe, 0xc2, 0x9b, 0x00, 0xbe, 0x94, 0x7b,
    0xda, 0xba, 0x16, 0x25, 0x29, 0x3e, 0xef, 0xb1, 0x93, 0x3e,
    0x84, 0x1d, 0x8f, 0xbd, 0x26, 0x74, 0x65, 0xbe, 0x43, 0xc9,
    0x33, 0xbd, 0x65, 0xc2, 0x06, 0xbe, 0x78, 0x8f, 0x6b, 0xbe,
    0x78, 0xe8, 0x6b, 0xbd, 0x56, 0x8d, 0x68, 0xbe, 0x9f, 0x77,
    0x91, 0xbe, 0xc2, 0x57, 0x38, 0x3e, 0x4f, 0xfa, 0xb6, 0x3c,
    0x1e, 0x4e, 0xf7, 0xbd, 0x9e, 0x5f, 0x27, 0xbe, 0xbe, 0x3e,
    0xa9, 0xbc, 0x20, 0xc2, 0x83, 0x3d, 0xc3, 0xbf, 0x79, 0x3e,
    0xb7, 0xe8, 0x8c, 0x3e, 0x7a, 0x37, 0x1a, 0x3e, 0xa3, 0xc5,
    0x96, 0x3e, 0xe0, 0x51, 0xd9, 0xbd, 0xa7, 0x82, 0x85, 0xbd,
    0x28, 0x89, 0x0b, 0xbd, 0x8e, 0x02, 0xd8, 0xbd, 0x38, 0xf6,
    0x14, 0xbd, 0xb1, 0xec, 0x3e, 0x3e, 0xbe, 0x8f, 0x57, 0x3e,
    0x00, 0xcd, 0x22, 0x3d, 0xaa, 0x10, 0x65, 0x3e, 0x58, 0xb4,
    0xf1, 0x3d, 0x77, 0x94, 0x8a, 0x3e, 0x23, 0x18, 0x8f, 0x3e,
    0x4a, 0xb2, 0x77, 0x3e, 0x6f, 0x91, 0xb1, 0x3e, 0x53, 0x32,
    0xbd, 0x3e, 0x70, 0x39, 0x0d, 0xbd, 0x40, 0x5d, 0xb6, 0x3b,
    0x00, 0xeb, 0x13, 0x3c, 0xbc, 0x7d, 0xdd, 0x3d, 0x5f, 0x77,
    0x49, 0xbe, 0x9d, 0x1e, 0xfb, 0xbc, 0x81, 0x8a, 0x81, 0x3e,
    0xa2, 0x7e, 0x9b, 0x3e, 0xdc, 0xf4, 0x11, 0xbe, 0x4f, 0x08,
    0x1b, 0x3e, 0x40, 0x13, 0x0b, 0x3e, 0xda, 0x22, 0x08, 0xbe,
    0xc4, 0x3e, 0xd4, 0x3d, 0xc0, 0x64, 0xba, 0xbd, 0x6e, 0x94,
    0x4a, 0x3e, 0xe7, 0xe3, 0x87, 0x3e, 0x4c, 0xab, 0x27, 0xbe,
    0xe8, 0x3d, 0x22, 0x3d, 0xf2, 0xe9, 0x7a, 0xbe, 0xbe, 0x5f,
    0x28, 0x3e, 0x59, 0xd0, 0x8a, 0x3c, 0x72, 0xa1, 0x44, 0x3e,
    0x80, 0xba, 0x0e, 0xbc, 0x6c, 0x9c, 0x91, 0x3d, 0x58, 0x5a,
    0xac, 0xbc, 0xf0, 0xfe, 0x89, 0x3c, 0x04, 0x52, 0xa6, 0x3d,
    0x60, 0x9b, 0x26, 0xbd, 0x6f, 0x40, 0x28, 0x3e, 0xe5, 0x8b,
    0xeb, 0x3d, 0xee, 0xc3, 0x49, 0xbe, 0x50, 0x41, 0xb8, 0x3c,
    0x24, 0x8a, 0x8a, 0xbe, 0x32, 0xb8, 0x3d, 0x3e, 0x90, 0x07,
    0xd3, 0x3d, 0x71, 0xbf, 0x4f, 0xbe, 0x02, 0xfe, 0x3d, 0x3e,
    0x98, 0x4f, 0x83, 0xbe, 0xa2, 0xd1, 0x37, 0x3e, 0xaa, 0xf6,
    0x5f, 0xbe, 0x5a, 0xe2, 0x50, 0xbe, 0xae, 0x39, 0x5b, 0x3e,
    0x16, 0xb3, 0x31, 0x3e, 0x3a, 0x25, 0x0c, 0x3e, 0x52, 0x61,
    0x68, 0x3e, 0x60, 0xf3, 0xab, 0xbc, 0xd0, 0x9d, 0xfe, 0xbd,
    0x27, 0xf4, 0x87, 0x3e, 0xd0, 0x54, 0xda, 0x3c, 0xe0, 0x35,
    0x8f, 0xbe, 0x33, 0x13, 0x0f, 0xbe, 0xfd, 0xb7, 0x08, 0xbe,
    0x80, 0x70, 0x12, 0x3d, 0xe2, 0x8e, 0x3f, 0xbe, 0x4c, 0xd3,
    0xca, 0x3d, 0x9a, 0x73, 0x72, 0x3e, 0x40, 0x6a, 0x57, 0xbd,
    0xcc, 0x6a, 0xcf, 0x3d, 0xa0, 0x07, 0xd0, 0xbc, 0xe0, 0x16,
    0x4f, 0xbe, 0xa4, 0x8d, 0xaa, 0x3d, 0x38, 0xfe, 0x42, 0xbd,
    0x64, 0x5b, 0xc8, 0xbd, 0xed, 0xa6, 0x07, 0xbe, 0x0f, 0xde,
    0x98, 0xbd, 0x4b, 0x9b, 0x9a, 0x3e, 0x7f, 0x02, 0x5f, 0xbe,
    0xd9, 0x23, 0x82, 0x3e, 0x7c, 0xa9, 0x18, 0xbe, 0x51, 0x4a,
    0x05, 0xbe, 0x16, 0xb6, 0x40, 0x3e, 0x83, 0x9d, 0x4a, 0xbe,
    0xf0, 0xdc, 0x5d, 0xbe, 0xc1, 0xfb, 0x83, 0x3e, 0xdc, 0xad,
    0x2d, 0xbe, 0x06, 0x3e, 0x17, 0x3e, 0xc9, 0x28, 0xbb, 0xbc,
    0x04, 0x4b, 0x89, 0x3d, 0xe5, 0x47, 0x94, 0x3e, 0x80, 0x09,
    0x9f, 0x3d, 0x33, 0xed, 0xae, 0xbc, 0x44, 0x91, 0x92, 0xbe,
    0x92, 0x96, 0x8d, 0xbe, 0x95, 0xdb, 0x31, 0xbe, 0xe6, 0x93,
    0xd8, 0xbd, 0x6b, 0x9e, 0x12, 0xbe, 0x76, 0xab, 0x51, 0x3e,
    0x0d, 0x67, 0x86, 0x3e, 0x72, 0x7b, 0xe1, 0xbd, 0x86, 0x98,
    0x4a, 0x3c, 0x12, 0x09, 0x7b, 0x3e, 0x40, 0xa0, 0xeb, 0x3d,
    0x0e, 0x4e, 0x22, 0x3e, 0x08, 0x55, 0x7c, 0x3d, 0x2b, 0x71,
    0x12, 0x3e, 0x3c, 0x4b, 0x98, 0x3d, 0xf1, 0xcf, 0x98, 0x3e,
    0xe4, 0xc5, 0x85, 0x3e, 0x36, 0x5f, 0x3e, 0x3e, 0x2a, 0x53,
    0xb9, 0x3d, 0x66, 0x8e, 0x82, 0xbe, 0x79, 0x8b, 0x81, 0x3e,
    0x82, 0xa7, 0x66, 0x3e, 0xa2, 0xe7, 0x0a, 0x3e, 0x4a, 0xac,
    0x79, 0xbe, 0xa9, 0x5b, 0xb9, 0xbe, 0xf1, 0x6b, 0x8d, 0x3e,
    0x0a, 0x3c, 0x9a, 0xbd, 0x92, 0x6c, 0xec, 0xbd, 0xb0, 0x85,
    0x9c, 0x3d, 0x99, 0x5e, 0x9e, 0xbe, 0xa8, 0xef, 0xa6, 0x3d,
    0x3a, 0xae, 0x41, 0x3e, 0x6f, 0x07, 0x0b, 0xbe, 0x26, 0x50,
    0x6a, 0x3e, 0xf0, 0xcb, 0x8a, 0x3d, 0x80, 0x80, 0xc6, 0xbb,
    0x19, 0x27, 0x81, 0x3e, 0x59, 0x70, 0x7f, 0xbe, 0x55, 0x46,
    0x3c, 0x3c, 0xa4, 0x6f, 0xf9, 0x3d, 0x8c, 0xd4, 0xbc, 0x3d,
    0x62, 0x85, 0x60, 0xbe, 0x1a, 0x4e, 0xf4, 0xbd, 0x8c, 0xe7,
    0x81, 0xbe, 0x65, 0x80, 0x8a, 0xbe, 0x62, 0xe9, 0xfc, 0xbd,
    0x1c, 0x21, 0x28, 0xbe, 0xbe, 0xe2, 0x55, 0x3e, 0x27, 0x6c,
    0x3b, 0xbe, 0x27, 0x9c, 0x4a, 0xbe, 0xa7, 0xfb, 0x98, 0xbe,
    0x90, 0x86, 0x3e, 0xbd, 0xae, 0xd6, 0x68, 0x3e, 0x5f, 0x35,
    0x83, 0x3e, 0x17, 0xa2, 0x8b, 0x3e, 0x2f, 0x2f, 0x3c, 0xbe,
    0x5e, 0x91, 0x28, 0x3e, 0x08, 0x7e, 0x03, 0x3e, 0x80, 0x8f,
    0x16, 0xbe, 0xb6, 0x2a, 0x94, 0xbe, 0xfb, 0x86, 0x81, 0xbe,
    0x09, 0xdb, 0x80, 0x3e, 0xa4, 0xb1, 0xe8, 0x3d, 0x79, 0x41,
    0x40, 0xbe, 0x0e, 0xfb, 0x46, 0x3e, 0x70, 0xde, 0x3c, 0x3d,
    0x82, 0xe8, 0x2e, 0x3e, 0xd0, 0xaf, 0xc9, 0xbd, 0x80, 0xfb,
    0xe1, 0xbc, 0xa0, 0xd5, 0x20, 0xbe, 0xa0, 0x1e, 0x46, 0xbe,
    0x5e, 0x0f, 0x19, 0xbe, 0x98, 0x55, 0xdb, 0x3d, 0xc1, 0x1f,
    0x3e, 0x3e, 0x82, 0x82, 0x11, 0xbd, 0xa3, 0xe6, 0x5b, 0x3e,
    0xb6, 0x4f, 0xdd, 0x3c, 0xee, 0x6c, 0x7c, 0x3e, 0x47, 0x7f,
    0x60, 0xbe, 0x90, 0x8f, 0x89, 0xbd, 0x85, 0x85, 0xe2, 0x3d,
    0x75, 0x62, 0x36, 0xbe, 0xf8, 0x9b, 0x98, 0x3d, 0xa3, 0xc3,
    0x99, 0x3e, 0x4f, 0xf8, 0x8e, 0xbc, 0x25, 0x94, 0x3a, 0x3e,
    0x74, 0xb7, 0xc5, 0x3d, 0x30, 0x76, 0x79, 0x3d, 0x0b, 0x90,
    0x8e, 0xbe, 0x8e, 0x2b, 0x70, 0x3e, 0x62, 0x67, 0x2a, 0x3e,
    0xbc, 0xd0, 0x1b, 0xbe, 0xc0, 0x2b, 0x0a, 0xbd, 0xc7, 0xee,
    0x80, 0xbe, 0xd1, 0x2c, 0xa0, 0x3e, 0x32, 0x9c, 0x43, 0x3e,
    0x28, 0x9b, 0x9d, 0xbe, 0xa0, 0x14, 0xf0, 0x3c, 0x7d, 0xb9,
    0x80, 0xbe, 0xbd, 0x5e, 0x8c, 0x3e, 0xc3, 0x6c, 0x6b, 0xbe,
    0x88, 0x1a, 0xa2, 0x3d, 0x21, 0x1e, 0x8f, 0xbe, 0x10, 0x6e,
    0x44, 0xbd, 0x93, 0xcb, 0x29, 0x3d, 0x85, 0x76, 0xee, 0x3d,
    0xa4, 0x9e, 0x89, 0xbe, 0x17, 0x28, 0x98, 0x3e, 0xc9, 0xaa,
    0x8c, 0x3e, 0x6c, 0x62, 0x7e, 0xbe, 0xf3, 0xba, 0x7e, 0xbe,
    0x5c, 0x0b, 0xb9, 0x3d, 0xb1, 0x04, 0x8a, 0x3e, 0x36, 0x02,
    0x87, 0xbe, 0x0e, 0xa0, 0x78, 0x3e, 0x4c, 0x44, 0x83, 0x3e,
    0xbf, 0x7a, 0x1c, 0xbe, 0xa8, 0x10, 0x99, 0x3d, 0x9b, 0xb0,
    0x30, 0xbe, 0x85, 0xdd, 0xa3, 0x3d, 0x6c, 0x4f, 0x1f, 0xbe,
    0xdc, 0x4f, 0xe7, 0x3d, 0xbd, 0x31, 0x84, 0xbe, 0x0c, 0x95,
    0x27, 0xbe, 0x6d, 0xbd, 0x18, 0xbe, 0x9b, 0xfe, 0x8b, 0x3e,
    0x4d, 0xf8, 0x18, 0xbe, 0xe7, 0x23, 0x41, 0xbe, 0x03, 0xce,
    0x78, 0xbd, 0xb3, 0x80, 0x8f, 0x3e, 0x3d, 0x46, 0x9d, 0x3e,
    0x60, 0x59, 0xc8, 0x3d, 0x6e, 0xc5, 0x4f, 0xbe, 0x40, 0x9f,
    0x28, 0x3c, 0x8d, 0xce, 0x31, 0xbe, 0x9b, 0xd2, 0xe0, 0x3d,
    0x35, 0xb8, 0xc4, 0x3d, 0x3c, 0x54, 0xeb, 0xbd, 0x69, 0x8a,
    0x34, 0xbe, 0x20, 0xdc, 0x09, 0xbd, 0x4a, 0x0a, 0x45, 0xbe,
    0x56, 0x54, 0x73, 0x3e, 0xa0, 0x83, 0xdd, 0x3d, 0x48, 0x78,
    0x83, 0xbd, 0xa8, 0xbe, 0x3d, 0x3e, 0x7a, 0x3a, 0x06, 0xbe,
    0x26, 0x45, 0xa0, 0xbe, 0x95, 0xd8, 0x22, 0xbe, 0x80, 0x6d,
    0x9c, 0xbc, 0x1e, 0x7e, 0x0a, 0xbe, 0x90, 0x4d, 0x2e, 0xbd,
    0xcc, 0x80, 0xe7, 0xbd, 0x44, 0x17, 0xef, 0xbd, 0x80, 0x05,
    0x6d, 0x3e, 0xfb, 0xfb, 0x2f, 0xbe, 0xa5, 0xc6, 0x96, 0x3e,
    0xb6, 0x01, 0xa1, 0xbe, 0x36, 0xaa, 0xe5, 0xbd, 0x88, 0x30,
    0x69, 0xbe, 0x3e, 0x54, 0x35, 0x3e, 0xde, 0x38, 0x48, 0x3e,
    0xdd, 0xa8, 0x44, 0xbe, 0x72, 0x79, 0x56, 0x3e, 0xb0, 0xea,
    0x94, 0xbd, 0x00, 0x32, 0x58, 0x3e, 0xef, 0xc2, 0x18, 0x3e,
    0x42, 0xf5, 0xfd, 0xbd, 0xde, 0xeb, 0x97, 0xbd, 0xd3, 0xc3,
    0x80, 0xbd, 0x98, 0x0c, 0xbb, 0xbd, 0x03, 0x8e, 0xa3, 0x3e,
    0xc6, 0x2d, 0xab, 0xbd, 0x1a, 0x25, 0x43, 0x3e, 0x2f, 0xf5,
    0x89, 0x3e, 0x58, 0x94, 0x20, 0x3d, 0xed, 0xf0, 0x39, 0xbd,
    0x15, 0x68, 0x18, 0xbe, 0x55, 0x4c, 0x99, 0x3e, 0xb6, 0xac,
    0x10, 0x3e, 0x48, 0x22, 0x32, 0xbd, 0x70, 0x4c, 0xe1, 0xbc,
    0xc0, 0xcd, 0x9f, 0xbd, 0xba, 0x67, 0x2f, 0x3e, 0x8c, 0xa1,
    0x85, 0x3e, 0xea, 0x67, 0x8c, 0xbd, 0x08, 0xa8, 0xf1, 0x3d,
    0x08, 0xff, 0xe3, 0x3d, 0x7c, 0x20, 0x88, 0xbd, 0x05, 0x19,
    0x35, 0xbe, 0x80, 0x54, 0xb5, 0x3c, 0x56, 0xa8, 0x1e, 0x3e,
    0x04, 0x44, 0x25, 0x3e, 0xd9, 0xad, 0x83, 0x3e, 0x5a, 0x1e,
    0x09, 0x3e, 0x0b, 0xbc, 0xee, 0x3d, 0xb3, 0xcc, 0xd4, 0xbd,
    0x2c, 0x9c, 0x6b, 0xbe, 0x40, 0x6e, 0x23, 0xbc, 0xe0, 0x60,
    0x90, 0xbc, 0xac, 0x9d, 0x53, 0xbe, 0x4b, 0x0d, 0x2c, 0x3e,
    0x90, 0xdc, 0x3b, 0xbd, 0x75, 0xa4, 0x8e, 0x3e, 0xee, 0x84,
    0x75, 0x3e, 0x86, 0xc5, 0x99, 0xbe, 0xaf, 0xb3, 0x86, 0x3e,
    0x1a, 0x06, 0x06, 0x3e, 0x82, 0x72, 0x56, 0x3e, 0x24, 0x15,
    0x16, 0xbe, 0x1b, 0x13, 0x68, 0xbe, 0x0c, 0x94, 0x63, 0xbe,
    0xb8, 0xd6, 0x3a, 0xbd, 0x9f, 0x69, 0x9b, 0x3e, 0x30, 0xc9,
    0x0f, 0xbd, 0x08, 0x23, 0x12, 0x3e, 0x78, 0x18, 0x61, 0xbe,
    0xcf, 0x85, 0x8b, 0x3e, 0xa7, 0x53, 0x8c, 0xbe, 0x80, 0x5e,
    0x39, 0xbb, 0xd6, 0xe7, 0x3f, 0x3e, 0x96, 0x90, 0x81, 0xbe,
    0x60, 0x34, 0x19, 0xbd, 0x50, 0x0b, 0xad, 0x3d, 0xc0, 0x2c,
    0xe2, 0xbd, 0xe3, 0x39, 0x06, 0xbf, 0x6d, 0x3f, 0xcd, 0x3e,
    0x00, 0x64, 0xb2, 0xbe, 0x70, 0x9e, 0x56, 0xbd, 0xa6, 0xfc,
    0x33, 0x3e, 0x80, 0xdc, 0x4a, 0xbc, 0x85, 0xfa, 0xb9, 0xbe,
    0x40, 0x45, 0x3e, 0xbc, 0xb6, 0x13, 0x52, 0xbe, 0xec, 0x3f,
    0x88, 0x3d, 0xaa, 0xbe, 0xac, 0xbe, 0xf7, 0x50, 0xcd, 0x3e,
    0x6f, 0x3d, 0x84, 0x3e, 0x3a, 0x65, 0x76, 0x3e, 0x18, 0x3f,
    0x0b, 0xbd, 0x6c, 0xf7, 0xa1, 0xbd, 0x32, 0x56, 0xb5, 0xbd,
    0xb2, 0x92, 0x50, 0x3e, 0x65, 0x9b, 0x87, 0x3e, 0xd6, 0xe5,
    0x53, 0xbf, 0xc8, 0xcc, 0x89, 0x3d, 0x30, 0x3e, 0x94, 0xbe,
    0x02, 0x2e, 0x80, 0xbe, 0x23, 0xf5, 0x16, 0xbe, 0x59, 0xd0,
    0x09, 0xbe, 0x64, 0xde, 0xd3, 0x3d, 0xb0, 0x05, 0x9a, 0xbe,
    0x82, 0x9e, 0x5e, 0xbe, 0x74, 0x3e, 0xb7, 0xbd, 0x60, 0xc9,
    0xa7, 0x3c, 0x34, 0xef, 0x4a, 0xbe, 0x50, 0x58, 0x17, 0x3d,
    0x04, 0x55, 0x0f, 0xbe, 0xd0, 0x60, 0x47, 0xbd, 0xde, 0xb1,
    0x56, 0xbe, 0xa0, 0x61, 0x09, 0xbc, 0x78, 0x44, 0x33, 0xbd,
    0xe3, 0x2d, 0x9d, 0xbe, 0xc8, 0xb8, 0xc6, 0x3d, 0xb7, 0x9e,
    0x80, 0x3e, 0x72, 0x50, 0x08, 0xbe, 0x80, 0xdd, 0x9b, 0xbb,
    0x5c, 0x15, 0x90, 0xbd, 0x28, 0xf2, 0x21, 0x3d, 0x6c, 0x56,
    0x39, 0x3e, 0x28, 0x78, 0x40, 0xbd, 0x18, 0xea, 0xb1, 0x3d,
    0x00, 0xff, 0x11, 0x3e, 0x40, 0x98, 0xc8, 0x3b, 0x14, 0x79,
    0x9d, 0x3d, 0x50, 0x99, 0x3e, 0xbe, 0xdc, 0xf9, 0xd4, 0x3d,
    0xc0, 0xa4, 0x2f, 0x3d, 0xe2, 0xb3, 0x5a, 0x3e, 0xa4, 0x48,
    0xf2, 0xbd, 0x8b, 0x83, 0x93, 0x3e, 0xed, 0xfd, 0x81, 0x3e,
    0x30, 0x66, 0x76, 0x3d, 0xde, 0x54, 0x24, 0xbe, 0xd5, 0x56,
    0x8c, 0x3e, 0x66, 0x18, 0x6c, 0x3e, 0x75, 0x65, 0xa2, 0x3d,
    0x40, 0xe4, 0x91, 0x3e, 0x84, 0xdb, 0x81, 0xbd, 0x41, 0x09,
    0xa6, 0xbe, 0xe2, 0x43, 0x96, 0xbd, 0x99, 0xbd, 0x1d, 0xbd,
    0x94, 0x7a, 0x94, 0x3d, 0x8d, 0x5a, 0x1c, 0xbe, 0x8b, 0x63,
    0x43, 0xbe, 0x8d, 0x60, 0x3a, 0x3e, 0x6f, 0xae, 0x6e, 0x3d,
    0x64, 0x6c, 0xe8, 0x3d, 0xe0, 0x2f, 0x8f, 0x3c, 0xef, 0xe1,
    0x12, 0xbe, 0x6c, 0xde, 0x9f, 0xbb, 0x0c, 0x6f, 0x9f, 0x3d,
    0xc0, 0xc3, 0xeb, 0x3d, 0xd0, 0xd4, 0x8a, 0xbc, 0xe4, 0x1b,
    0x70, 0x3d, 0x6c, 0x9c, 0x94, 0xbe, 0xf8, 0x76, 0x47, 0x3d,
    0xe8, 0x2c, 0xd7, 0x3d, 0x76, 0x2d, 0x8b, 0xbc, 0xd5, 0xac,
    0x26, 0x3e, 0x19, 0xa3, 0x3b, 0xbe, 0xd2, 0x62, 0xf1, 0xbd,
    0x15, 0xb9, 0x8b, 0x3e, 0x4a, 0xd0, 0x90, 0xbe, 0x87, 0xea,
    0xd3, 0xbd, 0xd7, 0x43, 0xe9, 0x3c, 0x49, 0xc0, 0x74, 0x3e,
    0xf4, 0xc2, 0x35, 0xbe, 0x24, 0x75, 0x9e, 0x3d, 0xb4, 0xd2,
    0x8c, 0x3d, 0x2c, 0x3e, 0xa0, 0xbd, 0x97, 0xcf, 0x71, 0x3e,
    0x48, 0x30, 0x7c, 0x3d, 0x7f, 0x7c, 0x88, 0x3e, 0x60, 0x41,
    0x89, 0xbd, 0x2a, 0x22, 0xf5, 0x3d, 0x57, 0xb5, 0x05, 0x3d,
    0x44, 0xc0, 0x07, 0xbe, 0xec, 0xcb, 0x20, 0x3e, 0x81, 0x7b,
    0x83, 0x3e, 0xd1, 0xc0, 0xb2, 0xbe, 0x85, 0xa2, 0x8f, 0x3e,
    0xe2, 0xd1, 0x79, 0xbe, 0x05, 0x81, 0x8c, 0xbe, 0x5b, 0xbc,
    0x93, 0xbd, 0x00, 0x25, 0xde, 0xbc, 0xb4, 0x9e, 0x4a, 0xbe,
    0x11, 0x81, 0x9b, 0x3e, 0x14, 0xf3, 0x69, 0xbd, 0xd6, 0x36,
    0xf6, 0x3d, 0xdd, 0xad, 0x3a, 0xbe, 0x4a, 0xaa, 0x48, 0x3e,
    0x09, 0x69, 0x39, 0xbe, 0x96, 0x79, 0x97, 0xbd, 0x27, 0xe4,
    0x4e, 0x3d, 0xf3, 0x69, 0x0f, 0xbe, 0x47, 0xb7, 0xec, 0x3d,
    0x78, 0xa0, 0x19, 0x3e, 0xbf, 0x50, 0x0f, 0xbe, 0x3a, 0x0e,
    0x9d, 0x3d, 0x71, 0xe5, 0x97, 0x3e, 0x08, 0xf6, 0x8c, 0x3e,
    0x33, 0x76, 0x94, 0xbe, 0x2e, 0x66, 0x4a, 0x3e, 0xae, 0x5e,
    0x69, 0xbe, 0x8f, 0x5d, 0x8e, 0x3e, 0xb2, 0xde, 0x14, 0xbe,
    0x4c, 0x73, 0x00, 0x3e, 0xfe, 0x46, 0x42, 0x3e, 0x42, 0x87,
    0x70, 0xbe, 0x3e, 0x9c, 0x2b, 0x3e, 0x90, 0x68, 0x4e, 0x3d,
    0xbe, 0xcc, 0xd2, 0xbd, 0x09, 0x8f, 0xa1, 0x3e, 0xa6, 0xbb,
    0x90, 0x3d, 0x4a, 0x11, 0x0a, 0x3e, 0x60, 0x25, 0x73, 0xbc,
    0xf2, 0x93, 0x29, 0x3e, 0x25, 0x2b, 0x88, 0x3e, 0x81, 0x0b,
    0x36, 0x3e, 0xd9, 0x02, 0x96, 0x3e, 0xe4, 0x4d, 0x96, 0xbe,
    0xac, 0xba, 0x98, 0x3d, 0xe3, 0xde, 0x08, 0xbe, 0x0f, 0x61,
    0x9f, 0xbd, 0xb4, 0x03, 0x59, 0x3e, 0xc3, 0xc3, 0x7c, 0xbe,
    0x9e, 0x6d, 0xea, 0x3d, 0xfc, 0x0f, 0x4d, 0xbe, 0x03, 0x09,
    0x06, 0xbe, 0x04, 0x90, 0xca, 0x3d, 0x08, 0xab, 0x7d, 0x3e,
    0x80, 0x34, 0x39, 0xbb, 0xd5, 0xf7, 0x94, 0x3e, 0xd8, 0x27,
    0x54, 0xbe, 0x7b, 0xb0, 0x47, 0xbe, 0xc5, 0x99, 0x82, 0x3e,
    0xea, 0xc7, 0x9c, 0xbe, 0xcc, 0x5c, 0xa4, 0x3d, 0x80, 0x69,
    0xb5, 0xbc, 0x5b, 0xd5, 0xcf, 0x3d, 0xa2, 0x1d, 0x02, 0x3e,
    0x04, 0x82, 0xe2, 0x3d, 0x32, 0xa5, 0x62, 0xbe, 0x26, 0x68,
    0x90, 0xbd, 0xb0, 0x85, 0x44, 0x3d, 0x04, 0x62, 0xb5, 0xbd,
    0x06, 0x6a, 0x84, 0xbe, 0x9b, 0xb7, 0xb4, 0x3d, 0x47, 0x94,
    0x83, 0x3e, 0xe2, 0x4f, 0xd1, 0xbd, 0x99, 0xe0, 0xa0, 0x3e,
    0x46, 0xaf, 0x08, 0xbe, 0x40, 0xa7, 0xd9, 0xbb, 0x02, 0x68,
    0xd5, 0xbd, 0x1d, 0x60, 0x95, 0x3e, 0x39, 0xeb, 0xb0, 0xbc,
    0xaa, 0x60, 0xd7, 0xbd, 0x6e, 0x18, 0x08, 0x3e, 0x80, 0x92,
    0x68, 0xbd, 0xb2, 0xa9, 0xa1, 0xbe, 0xe9, 0x90, 0x47, 0x3e,
    0x97, 0x9d, 0x9e, 0x3e, 0xd9, 0x18, 0x62, 0xbe, 0x3a, 0xe4,
    0x4a, 0x3e, 0x0a, 0x7f, 0x90, 0x3e, 0xf3, 0xcb, 0x34, 0xbe,
    0xb2, 0x9a, 0x4a, 0x3e, 0xca, 0xd0, 0x38, 0x3e, 0xb2, 0xe6,
    0xf6, 0xbd, 0x24, 0x71, 0x68, 0x3e, 0x96, 0xa2, 0x78, 0x3e,
    0x70, 0xc3, 0x96, 0x3c, 0x4f, 0x8d, 0x95, 0xbe, 0xbe, 0xbf,
    0x68, 0xbd, 0xbb, 0x32, 0x9d, 0x3e, 0x2a, 0xcc, 0x6b, 0xbe,
    0x63, 0x19, 0x99, 0x3e, 0x22, 0xc0, 0x32, 0xbe, 0xd2, 0x2d,
    0x50, 0x3e, 0x69, 0xc2, 0x1f, 0xbe, 0x20, 0x4e, 0x3a, 0xbe,
    0x32, 0x7d, 0x62, 0x3e, 0xe7, 0x17, 0x8d, 0x3e, 0xfa, 0x59,
    0x9c, 0xbd, 0x24, 0xe9, 0xc2, 0xbd, 0x30, 0x7e, 0xaf, 0x3c,
    0x5f, 0xaf, 0x28, 0xbe, 0x19, 0x6b, 0x8f, 0x3e, 0x18, 0x29,
    0x02, 0x3e, 0xa6, 0x4c, 0xff, 0xbd, 0x20, 0x10, 0x38, 0x3c,
    0x80, 0x81, 0x7f, 0xbd, 0x42, 0x5f, 0x57, 0xbe, 0xc8, 0xc2,
    0x3a, 0xbd, 0x7f, 0x1c, 0x8a, 0xbe, 0x80, 0x2e, 0x5c, 0xbd,
    0xfb, 0x52, 0x33, 0xbe, 0x46, 0xeb, 0x5f, 0x3e, 0xc8, 0x55,
    0x83, 0xbe, 0x7c, 0x21, 0x4b, 0xbe, 0x30, 0xeb, 0x92, 0xbc,
    0x94, 0x2a, 0xd0, 0x3d, 0x91, 0x5b, 0x88, 0x3e, 0x46, 0xac,
    0xfc, 0xbd, 0x6b, 0x5a, 0x88, 0x3e, 0x61, 0xfc, 0x49, 0xbe,
    0xf1, 0xbf, 0x26, 0xbe, 0x0c, 0x7f, 0xff, 0xbd, 0x34, 0xa1,
    0xb0, 0x3d, 0x78, 0xa0, 0x63, 0xbd, 0x26, 0xfd, 0x59, 0xbe,
    0x10, 0x14, 0x45, 0xbe, 0x0a, 0x6b, 0x71, 0x3e, 0x2a, 0x05,
    0x96, 0x3e, 0xb9, 0x7d, 0x55, 0xbe, 0xc7, 0x6b, 0x9a, 0x3c,
    0x10, 0x33, 0xd8, 0x3d, 0xae, 0x21, 0x25, 0x3e, 0xcd, 0xca,
    0xbe, 0x3e, 0xb7, 0x94, 0x73, 0xbe, 0x88, 0x1d, 0x17, 0x3e,
    0x33, 0x35, 0x84, 0x3e, 0xce, 0x1f, 0x42, 0x3e, 0x86, 0xc9,
    0xc2, 0xbd, 0x0c, 0x98, 0xc7, 0x3c, 0xfe, 0x3f, 0xa3, 0x3e,
    0xd2, 0xd0, 0x62, 0x3e, 0xb8, 0x5f, 0x6f, 0xbd, 0x31, 0x2b,
    0x8d, 0xbe, 0x0b, 0xea, 0x81, 0x3e, 0x14, 0x4e, 0x85, 0xbd,
    0x29, 0x7c, 0x97, 0x3e, 0x20, 0x7f, 0xdc, 0x3c, 0x90, 0xbd,
    0xc1, 0xbd, 0xb8, 0xdb, 0x24, 0x3e, 0x80, 0xe5, 0x9c, 0xbc,
    0x26, 0xcc, 0x0e, 0x3e, 0xae, 0xfd, 0x09, 0xbe, 0x4d, 0xcb,
    0xb3, 0x3e, 0x8a, 0xf3, 0x0b, 0x3e, 0x5a, 0x5f, 0x02, 0x3e,
    0x2e, 0x5a, 0x59, 0x3e, 0x03, 0x0a, 0x39, 0xbe, 0x18, 0x81,
    0x26, 0x3e, 0xf0, 0x0d, 0x20, 0x3d, 0x94, 0x8e, 0x17, 0x3e,
    0x20, 0xe3, 0x5a, 0xbe, 0x16, 0x05, 0x9f, 0xbe, 0xef, 0x20,
    0x15, 0xbe, 0x02, 0x0a, 0x67, 0x3e, 0x8c, 0x3f, 0x7c, 0xbe,
    0x38, 0x69, 0x83, 0x3d, 0xe0, 0x04, 0xa1, 0x3d, 0xc0, 0x13,
    0x62, 0xbe, 0x3b, 0x7a, 0x76, 0xbe, 0xd0, 0xde, 0x78, 0xbd,
    0x50, 0x9c, 0xc7, 0x3d, 0x38, 0xd7, 0x33, 0xbd, 0x80, 0x76,
    0xd4, 0xbd, 0xe0, 0xe3, 0xdd, 0x3d, 0x20, 0xb1, 0x1a, 0x3d,
    0xc4, 0x4c, 0x9d, 0x3d, 0x38, 0xe9, 0xdf, 0x3d, 0xae, 0x73,
    0x51, 0xbe, 0xe6, 0x04, 0x3e, 0x3e, 0x74, 0x0f, 0x34, 0xbe,
    0x10, 0xa3, 0x94, 0xbc, 0x6a, 0x72, 0x3a, 0x3e, 0xe8, 0x12,
    0x50, 0xbd, 0x24, 0x3e, 0x5e, 0xbe, 0x90, 0xfa, 0xe3, 0x3d,
    0x58, 0x00, 0xc0, 0x3d, 0x11, 0x76, 0x80, 0x3e, 0x88, 0xb7,
    0x5e, 0xbe, 0x03, 0xe0, 0x37, 0x3e, 0x50, 0xb7, 0x0b, 0x3e,
    0x3f, 0xca, 0x40, 0x3e, 0xb4, 0xd0, 0x06, 0x3e, 0x45, 0x5d,
    0x9e, 0xbe, 0x1c, 0x70, 0xf9, 0x3d, 0xa2, 0x1d, 0xd9, 0xbc,
    0x48, 0x94, 0x70, 0xbd, 0x3a, 0xd7, 0x67, 0xbe, 0x06, 0x21,
    0x57, 0x3e, 0xe5, 0xab, 0xb2, 0xbe, 0x44, 0x5e, 0xe7, 0x3d,
    0x58, 0xfd, 0x71, 0xbd, 0x0f, 0x3f, 0x29, 0xbe, 0x0e, 0x4b,
    0x89, 0xbd, 0x2a, 0x63, 0x89, 0xbd, 0xc0, 0x87, 0x1d, 0x3d,
    0x40, 0x4b, 0xd4, 0x3c, 0xe3, 0x11, 0x93, 0x3e, 0x06, 0x9f,
    0x51, 0xbd, 0x72, 0x8f, 0x6e, 0xbe, 0x75, 0xca, 0x83, 0xbe,
    0xe8, 0x39, 0x1a, 0xbd, 0x05, 0xb9, 0x10, 0x3e, 0x1c, 0x37,
    0x90, 0x3d, 0xe1, 0x04, 0x54, 0xbe, 0xec, 0x2f, 0xca, 0xbd,
    0x6b, 0x38, 0x91, 0xbe, 0xa1, 0x0b, 0x12, 0xbe, 0xa5, 0xb1,
    0x91, 0x3e, 0xbe, 0x19, 0xd7, 0x3d, 0xd3, 0x9f, 0x0c, 0x3e,
    0x51, 0xe0, 0xc7, 0x3d, 0x6e, 0x24, 0x52, 0xbe, 0x7a, 0xe1,
    0x93, 0xbe, 0x61, 0x46, 0x34, 0xbe, 0xd6, 0x77, 0x7a, 0xbc,
    0xa0, 0xa1, 0x09, 0x3e, 0x16, 0x88, 0x66, 0x3e, 0x36, 0x3a,
    0x78, 0x3e, 0x49, 0xbc, 0x05, 0xbd, 0x00, 0x95, 0xd9, 0xbd,
    0x90, 0xb9, 0x3f, 0xbd, 0x18, 0x6b, 0xf0, 0x3d, 0x99, 0xe3,
    0x80, 0x3e, 0x12, 0x6b, 0x9d, 0x3d, 0x1c, 0x85, 0xa1, 0xbd,
    0x26, 0x94, 0x9d, 0xbd, 0xf2, 0xcf, 0x9b, 0xbd, 0xc0, 0xd0,
    0x48, 0xbd, 0xa0, 0xbe, 0x55, 0x3d, 0xb2, 0x40, 0x52, 0xbe,
    0xf6, 0x58, 0xa1, 0xbd, 0x60, 0x12, 0xdf, 0xbd, 0xf0, 0xd1,
    0x85, 0xbe, 0xae, 0xa0, 0x55, 0x3e, 0x21, 0xd4, 0x24, 0xbe,
    0xe8, 0x5c, 0x30, 0x3e, 0x29, 0xc6, 0x9d, 0x3e, 0x4c, 0x09,
    0x9a, 0xbe, 0x30, 0xe2, 0x00, 0xbd, 0x90, 0x8d, 0xdb, 0xbc,
    0x81, 0x73, 0x8e, 0xbe, 0x14, 0xcd, 0x01, 0x3e, 0x8b, 0xc7,
    0x8c, 0x3e, 0x6f, 0x52, 0x37, 0xbe, 0xd5, 0x6a, 0x8d, 0xbe,
    0x50, 0x3b, 0x94, 0xbc, 0xa2, 0x72, 0x77, 0x3e, 0x00, 0xd0,
    0xf2, 0xba, 0x47, 0xd2, 0xc1, 0x3d, 0xd2, 0xa1, 0xbd, 0xbd,
    0x78, 0x35, 0xcc, 0x3d, 0x67, 0xfe, 0x94, 0x3e, 0x04, 0xda,
    0x9e, 0x3d, 0x51, 0x3b, 0x88, 0xbe, 0x40, 0xa2, 0xfb, 0xbb,
    0x12, 0xaf, 0x68, 0xbe, 0xa8, 0x4a, 0x66, 0xbd, 0x74, 0x7b,
    0xf9, 0xbd, 0x74, 0x83, 0xfb, 0x3d, 0x58, 0xe6, 0x5a, 0xbe,
    0x20, 0xda, 0xf6, 0x3d, 0xc9, 0x6a, 0x52, 0x3e, 0xd8, 0x83,
    0x2b, 0x3e, 0x7a, 0x96, 0x29, 0x3e, 0x22, 0x15, 0x41, 0x3e,
    0xfe, 0x5f, 0xac, 0x3e, 0x00, 0x00, 0x00, 0x00, 0x6f, 0x77,
    0xc6, 0xbc, 0x41, 0xa7, 0x26, 0xbe, 0x54, 0x9b, 0x38, 0x3e,
    0x09, 0xb7, 0x12, 0x3e, 0x3e, 0xdb, 0x0d, 0xbe, 0x35, 0x60,
    0xf1, 0xbd, 0x00, 0x00, 0x00, 0x00, 0xdb, 0x64, 0x1a, 0x3e,
    0x36, 0x3a, 0x18, 0x3e, 0x00, 0x00, 0x00, 0x00, 0x42, 0xa3,
    0x18, 0x3e, 0x41, 0xda, 0x37, 0xbd, 0xb0, 0xe7, 0x78, 0xbc,
    0x96, 0xef, 0x45, 0xbe, 0xb7, 0xae, 0xe0, 0xbc, 0x3c, 0xbd,
    0xb4, 0x3e, 0x00, 0x00, 0x00, 0x00, 0xc1, 0x21, 0x17, 0x3e,
    0xcf, 0xe3, 0x1c, 0x3e, 0x98, 0xb0, 0x2c, 0xbe, 0x1b, 0x99,
    0x66, 0xbe, 0x8a, 0xad, 0xf4, 0xbd, 0x00, 0x00, 0x00, 0x00,
    0xb5, 0x97, 0x03, 0xbe, 0x00, 0x00, 0x00, 0x00, 0xa0, 0xbb,
    0x20, 0x3e, 0x58, 0xa3, 0x35, 0x3e, 0x6a, 0x28, 0xa7, 0xbb,
    0x45, 0xd4, 0x45, 0xbf, 0xc0, 0x65, 0x03, 0x3e, 0xbc, 0x4e,
    0x2e, 0x3e, 0xa6, 0x54, 0xa0, 0xbe, 0x3b, 0x81, 0xc2, 0x3d,
    0xcb, 0x97, 0x17, 0x3e, 0x14, 0x72, 0xf6, 0xbe, 0x47, 0xa4,
    0xb9, 0xbe, 0x14, 0xea, 0xbf, 0xbe, 0xf8, 0x1b, 0x8d, 0x3e,
    0xfa, 0x5c, 0xa4, 0x3e, 0x44, 0x15, 0x7b, 0x3e, 0x81, 0xda,
    0x01, 0x3e, 0x90, 0x79, 0x8c, 0x3e, 0x25, 0xff, 0x36, 0xbe,
    0xcd, 0x48, 0xb8, 0xbd, 0x2f, 0xa7, 0x16, 0x3e, 0xc2, 0x50,
    0x72, 0xbf, 0x86, 0x4c, 0x8a, 0x3e, 0xf4, 0x22, 0xae,
    0x3e, 0xcc, 0x05, 0xb3, 0x3e, 0xf2, 0x62, 0xa8, 0xbe,
    0x89, 0x08, 0xfc, 0xbd, 0x31, 0xff, 0xf9, 0xbe, 0xa0,
    0xe7, 0x9d, 0xbe, 0x20, 0x82, 0xf1, 0xbe, 0x64, 0x8f,
    0xfa, 0xbd, 0x9a, 0x20, 0xaa, 0x3e, 0x97, 0xa4, 0xb0,
    0x3e, 0xf6, 0x92, 0xa9, 0x3e, 0x99, 0x40, 0x1a, 0x3e
  };

  return AI_HANDLE_PTR(s_sine_30_30_weights);

}

